-1e99
-10aa
9ddc
12b7
8724
34e0
-3eaf
-57cc
-117d1
-bcab
129a
-37a8
-2730
1d74
-6a56
320b
-4d8c
-833a
2345
11c8
922d
3107
-1bb4
f9a1
57d
13d9
-66d3
-806d
-466e
-6874
-89fa
-78f
669e
60bf
-1b44
-f37
-52b3
856b
-38
7d58
1306
680c
2128
-5bd
66b9
-be2a
-9689
-195e
-1266
-12114
73b5
89a7
33da
-495e
638c
-1598
434b
461
8977
64a7
d41f
-46dd
-4102
441a
1f90
33f8
-2877
-6785
-c45a
-cdb6
2489
-8913
-4f8d
-aeb
8345
21ec
7551
-110
-7866
-561e
6d2b
8108
68f0
e13e
-d16
-4463
-d250
-1b8b
-81f6
-beb1
-75be
-1937
-5c8a
2d18
-4b4b
5f63
6341
6f99
6eae
-1101
