28ef
d2ae
e891
37f3
d52c
1987
6672
1c6a
7160
7eec
323c
267
1cef
10c8
c3
eb5b
c009
ec9b
41e2
43b4
62d9
9d70
351c
3a23
d265
f138
91fd
4b0e
f5c8
c62d
bbe6
3279
1624
e4dd
3de5
d603
dd7d
1bfc
26f
31e7
7c41
e54d
bb90
fec8
aa15
fb23
9ba4
c96
26c2
7339
3f63
27ad
3ffa
1521
2c71
d35a
dcf1
2070
f0d6
2628
59fc
9a33
3ad1
2871
fd4a
38c
27ed
3f97
374e
9245
10b
e2e0
2cab
e5df
3f6c
fccb
e0f5
f61f
de00
f614
5157
c5ba
4002
e216
fa15
40ae
3a76
445f
4d22
abcf
153a
dd76
c5dd
4352
bb3b
1b3
cc14
e580
37ff
2cf3
