7dd6
f82a
26
47
f85f
792
fe83
fecc
f574
f8c8
f4c3
8440
effa
fc12
7fa
fcc2
b5c
f561
287
be3
aaed
2622
ffcf
ff80
c930
28ca
28
ffe7
cf9f
1a26
821f
78f
f9
282
4f0
fa39
fff6
ff02
d68
590
4dfa
4be4
e3
3b7
cf4b
ff0
ff70
fc32
d784
d0e
825f
8ed
160
13
41b
5c8
ff75
ff2f
e89
f8c7
e2f9
7321
fb92
fdef
1834
1572
278
20a
2114
fc36
f54c
7816
119
59e
da6
16cd
fb77
6b2
532
e2e9
248
88b8
c00
ff96
f9e3
1f38
642
a2f
620
e79b
7d7
7abb
fc00
f4e6
f7f4
f3ee
1945
f83a
fc7f
ff12
