f0b3
f7aa
4eed
95b
4391
1a70
e0a8
d419
7418
a1aa
94d
e42c
ec67
eba
cad5
1905
d93a
be63
11a2
8e4
4916
1883
f226
7ccf
2be
9ec
cc96
bfc9
dcc9
cbc5
bb03
fc38
334e
305f
f25e
f864
d6a6
42b5
ffe3
3eab
983
3405
1094
fd21
335c
a0eb
b4bc
f350
f6cc
6f77
39da
44d3
19ed
db51
31c5
f533
21a5
230
44bb
3253
6a0f
dc91
df7e
220c
fc7
19fc
ebc4
cc3d
9dd3
9925
1244
bb76
d839
fa8a
41a1
10f6
3aa8
ff77
c3cd
d4f0
3695
4083
3477
709e
f974
ddce
96d8
f23a
bf05
a0a8
c521
f364
d1bb
168b
da5a
2fb1
31a0
37cc
3756
f77f
